
#ifdef __has_attribute
#define HAVE_ATTRIBUTE(x) __has_attribute(x)
#else
#define HAVE_ATTRIBUTE(x) 0
#endif
#if HAVE_ATTRIBUTE(aligned) || (defined(__GNUC__) && !defined(__clang__))
#define DATA_ALIGN_ATTRIBUTE __attribute__((aligned(4)))
#else
#define DATA_ALIGN_ATTRIBUTE
#endif

const unsigned char model_data[] DATA_ALIGN_ATTRIBUTE = {0x1c, 0x00, 0x00, 0x00, 0x54, 0x46, 0x4c, 0x33, 0x00, 0x00, 0x12, 0x00, 0x1c, 0x00, 0x04, 0x00, 0x08, 0x00, 0x0c, 0x00, 0x10, 0x00, 0x14, 0x00, 0x00, 0x00, 0x18, 0x00, 0x12, 0x00, 0x00, 0x00, 0x03, 0x00, 0x00, 0x00, 0x20, 0x1d, 0x00, 0x00, 0x10, 0x00, 0x00, 0x00, 0x1c, 0x00, 0x00, 0x00, 0x2c, 0x00, 0x00, 0x00, 0x0c, 0x00, 0x00, 0x00, 0x01, 0x00, 0x00, 0x00, 0xe4, 0x00, 0x00, 0x00, 0x01, 0x00, 0x00, 0x00, 0xac, 0x00, 0x00, 0x00, 0x0f, 0x00, 0x00, 0x00, 0x54, 0x4f, 0x43, 0x4f, 0x20, 0x43, 0x6f, 0x6e, 0x76, 0x65, 0x72, 0x74, 0x65, 0x64, 0x2e, 0x00, 0x0d, 0x00, 0x00, 0x00, 0x80, 0x00, 0x00, 0x00, 0x74, 0x00, 0x00, 0x00, 0x68, 0x00, 0x00, 0x00, 0x5c, 0x00, 0x00, 0x00, 0x50, 0x00, 0x00, 0x00, 0x44, 0x00, 0x00, 0x00, 0x3c, 0x00, 0x00, 0x00, 0x34, 0x00, 0x00, 0x00, 0x2c, 0x00, 0x00, 0x00, 0x20, 0x00, 0x00, 0x00, 0x18, 0x00, 0x00, 0x00, 0x10, 0x00, 0x00, 0x00, 0x04, 0x00, 0x00, 0x00, 0x26, 0xe4, 0xff, 0xff, 0x4c, 0x00, 0x00, 0x00, 0xec, 0xe3, 0xff, 0xff, 0xf0, 0xe3, 0xff, 0xff, 0x36, 0xe4, 0xff, 0xff, 0x9c, 0x01, 0x00, 0x00, 0xfc, 0xe3, 0xff, 0xff, 0x00, 0xe4, 0xff, 0xff, 0x04, 0xe4, 0xff, 0xff, 0x4a, 0xe4, 0xff, 0xff, 0xa8, 0x12, 0x00, 0x00, 0x52, 0xe4, 0xff, 0xff, 0x80, 0x13, 0x00, 0x00, 0x5a, 0xe4, 0xff, 0xff, 0xc0, 0x19, 0x00, 0x00, 0x62, 0xe4, 0xff, 0xff, 0x30, 0x1a, 0x00, 0x00, 0x6a, 0xe4, 0xff, 0xff, 0xa4, 0x1a, 0x00, 0x00, 0x30, 0xe4, 0xff, 0xff, 0x05, 0x00, 0x00, 0x00, 0x31, 0x2e, 0x35, 0x2e, 0x30, 0x00, 0x00, 0x00, 0x38, 0xee, 0xff, 0xff, 0x08, 0x00, 0x00, 0x00, 0x0c, 0x00, 0x00, 0x00, 0x13, 0x00, 0x00, 0x00, 0x6d, 0x69, 0x6e, 0x5f, 0x72, 0x75, 0x6e, 0x74, 0x69, 0x6d, 0x65, 0x5f, 0x76, 0x65, 0x72, 0x73, 0x69, 0x6f, 0x6e, 0x00, 0x0c, 0x00, 0x14, 0x00, 0x04, 0x00, 0x08, 0x00, 0x0c, 0x00, 0x10, 0x00, 0x0c, 0x00, 0x00, 0x00, 0x20, 0x00, 0x00, 0x00, 0x14, 0x00, 0x00, 0x00, 0x08, 0x00, 0x00, 0x00, 0xe4, 0x1a, 0x00, 0x00, 0x01, 0x00, 0x00, 0x00, 0x00, 0x00, 0x00, 0x00, 0x01, 0x00, 0x00, 0x00, 0x01, 0x00, 0x00, 0x00, 0x0b, 0x00, 0x00, 0x00, 0x6c, 0x00, 0x00, 0x00, 0x3c, 0x11, 0x00, 0x00, 0x98, 0x00, 0x00, 0x00, 0xcc, 0x11, 0x00, 0x00, 0xf0, 0x10, 0x00, 0x00, 0x8c, 0x12, 0x00, 0x00, 0xe8, 0x18, 0x00, 0x00, 0x10, 0x00, 0x00, 0x00, 0x74, 0x11, 0x00, 0x00, 0xb8, 0x19, 0x00, 0x00, 0x50, 0x19, 0x00, 0x00, 0x5e, 0xe6, 0xff, 0xff, 0x10, 0x00, 0x00, 0x00, 0x0b, 0x00, 0x00, 0x00, 0x14, 0x00, 0x00, 0x00, 0x2c, 0x00, 0x00, 0x00, 0x02, 0x00, 0x00, 0x00, 0x01, 0x00, 0x00, 0x00, 0x0c, 0x00, 0x00, 0x00, 0x17, 0x00, 0x00, 0x00, 0x73, 0x65, 0x71, 0x75, 0x65, 0x6e, 0x74, 0x69, 0x61, 0x6c, 0x2f, 0x64, 0x65, 0x6e, 0x73, 0x65, 0x5f, 0x31, 0x2f, 0x52, 0x65, 0x6c, 0x75, 0x00, 0x00, 0xe5, 0xff, 0xff, 0x9e, 0xe6, 0xff, 0xff, 0x10, 0x00, 0x00, 0x00, 0x0a, 0x00, 0x00, 0x00, 0x14, 0x00, 0x00, 0x00, 0x20, 0x00, 0x00, 0x00, 0x02, 0x00, 0x00, 0x00, 0x01, 0x00, 0x00, 0x00, 0x03, 0x00, 0x00, 0x00, 0x08, 0x00, 0x00, 0x00, 0x49, 0x64, 0x65, 0x6e, 0x74, 0x69, 0x74, 0x79, 0x00, 0x00, 0x00, 0x00, 0x34, 0xe5, 0xff, 0xff, 0xd2, 0xe6, 0xff, 0xff, 0x10, 0x00, 0x00, 0x00, 0x09, 0x00, 0x00, 0x00, 0x14, 0x00, 0x00, 0x00, 0x48, 0x00, 0x00, 0x00, 0x02, 0x00, 0x00, 0x00, 0x20, 0x00, 0x00, 0x00, 0x20, 0x00, 0x00, 0x00, 0x30, 0x00, 0x00, 0x00, 0x73, 0x65, 0x71, 0x75, 0x65, 0x6e, 0x74, 0x69, 0x61, 0x6c, 0x2f, 0x64, 0x65, 0x6e, 0x73, 0x65, 0x2f, 0x4d, 0x61, 0x74, 0x4d, 0x75, 0x6c, 0x2f, 0x52, 0x65, 0x61, 0x64, 0x56, 0x61, 0x72, 0x69, 0x61, 0x62, 0x6c, 0x65, 0x4f, 0x70, 0x2f, 0x74, 0x72, 0x61, 0x6e, 0x73, 0x70, 0x6f, 0x73, 0x65, 0x00, 0x00, 0x00, 0x00, 0x90, 0xe5, 0xff, 0xff, 0x00, 0x10, 0x00, 0x00, 0x59, 0xb2, 0x47, 0x3b, 0x0d, 0xe6, 0xba, 0x3d, 0x92, 0x5d, 0xca, 0xbd, 0x34, 0x2a, 0x2e, 0x3e, 0x04, 0x32, 0x1d, 0x3e, 0xe9, 0xc8, 0x08, 0xbe, 0xb1, 0x69, 0xac, 0xbe, 0xc0, 0x43, 0x50, 0x3e, 0xfa, 0x6b, 0x94, 0x3d, 0x4b, 0x21, 0x5a, 0x3e, 0xac, 0x91, 0x4d, 0xbe, 0x45, 0x56, 0x90, 0xbc, 0xf8, 0xa0, 0xb3, 0xbe, 0x81, 0xd7, 0x04, 0x3e, 0x8d, 0x83, 0x18, 0x3e, 0x2c, 0x76, 0x2e, 0x3d, 0x75, 0x49, 0xb8, 0xbe, 0x95, 0xf8, 0x01, 0xbe, 0x83, 0x3c, 0xb9, 0x3d, 0x07, 0xe1, 0x1c, 0x3e, 0xfe, 0x6a, 0x9b, 0xbe, 0xd3, 0x74, 0x46, 0x3d, 0xac, 0x7c, 0x83, 0xbe, 0xc1, 0x73, 0x80, 0xbe, 0x28, 0x92, 0x75, 0xbd, 0xfe, 0x6c, 0xa3, 0xbd, 0x56, 0x10, 0x18, 0x3d, 0x77, 0xf3, 0x99, 0xbe, 0x91, 0x70, 0x65, 0x3d, 0xa0, 0xc1, 0x37, 0x3e, 0x6e, 0xfe, 0xe8, 0x3c, 0xf3, 0x36, 0x2a, 0xbe, 0xa8, 0xf8, 0x13, 0xbd, 0x10, 0x22, 0x84, 0x3c, 0x92, 0xe4, 0x46, 0xbe, 0xc4, 0xda, 0x7d, 0xbe, 0x08, 0x32, 0x6d, 0xbe, 0x3f, 0xb1, 0x7e, 0xbe, 0xeb, 0x24, 0x65, 0xbe, 0xa0, 0x9c, 0x91, 0xbe, 0x48, 0xc1, 0x2d, 0x3e, 0x64, 0xeb, 0xa2, 0xbd, 0x60, 0x25, 0x19, 0x3d, 0x61, 0xb5, 0x8f, 0x3e, 0x62, 0xd7, 0xba, 0xbd, 0x0e, 0x01, 0x81, 0xbd, 0x80, 0xf5, 0xfb, 0x3d, 0x80, 0x7d, 0xa4, 0x3c, 0x98, 0xd7, 0x18, 0x3e, 0x9e, 0x7d, 0x52, 0x3e, 0x81, 0xe8, 0x64, 0xbe, 0x03, 0xb6, 0x85, 0xbe, 0x7c, 0x29, 0x76, 0xbd, 0x28, 0xce, 0x24, 0x3d, 0xd0, 0xf2, 0xdd, 0xbc, 0xc0, 0x72, 0xe6, 0xbb, 0x18, 0x0b, 0x85, 0xbe, 0x34, 0x42, 0x6e, 0xbd, 0x33, 0x47, 0x94, 0xbe, 0xe4, 0xbc, 0x85, 0xbe, 0x43, 0x9c, 0x32, 0xbe, 0xac, 0xbb, 0x74, 0xbd, 0xc8, 0x27, 0xc1, 0x3d, 0xde, 0x46, 0xa4, 0xbd, 0x7a, 0x81, 0xb8, 0xbd, 0x00, 0x6f, 0x64, 0xbb, 0x5c, 0xe3, 0x66, 0xbe, 0x50, 0xbf, 0x81, 0xbe, 0xb2, 0xa5, 0x64, 0xbe, 0x08, 0xbe, 0x21, 0xbd, 0x0d, 0x1a, 0x86, 0xbe, 0x68, 0x04, 0x1e, 0x3e, 0xec, 0x76, 0xc1, 0x3d, 0x4e, 0xb1, 0x18, 0x3e, 0xd2, 0x76, 0x40, 0xbe, 0x04, 0xd5, 0xe1, 0xbd, 0xb2, 0x07, 0xc8, 0xbd, 0xce, 0x0c, 0x4a, 0xbe, 0x2a, 0xfd, 0x83, 0xbe, 0x38, 0x62, 0x34, 0x3e, 0xfc, 0xc3, 0x67, 0xbe, 0xac, 0x06, 0xec, 0x3d, 0x10, 0xcf, 0xcc, 0xbd, 0x40, 0x1d, 0xd4, 0x3d, 0x60, 0xb7, 0x8e, 0xbc, 0xfe, 0x34, 0xd2, 0xbd, 0x34, 0x18, 0x3e, 0x3e, 0x40, 0xea, 0xcd, 0x3c, 0x18, 0xf3, 0x12, 0xbe, 0xd8, 0x37, 0x29, 0x3d, 0x1a, 0x4b, 0xbd, 0xbd, 0x44, 0xd6, 0x30, 0xbe, 0x8f, 0x0f, 0x96, 0x3e, 0x3d, 0x04, 0x58, 0xbe, 0x86, 0xdd, 0xfd, 0xbd, 0xcd, 0xb5, 0x16, 0xbe, 0x86, 0x7f, 0xf7, 0xbc, 0x24, 0x44, 0x39, 0xbe, 0xfa, 0x66, 0xa6, 0x3d, 0x35, 0x96, 0x8b, 0x3d, 0x6c, 0x6f, 0x22, 0xbe, 0x97, 0x63, 0xdb, 0x3b, 0x8e, 0xe4, 0xde, 0xbc, 0x52, 0x72, 0x91, 0xbe, 0x55, 0x4a, 0x85, 0xbb, 0x06, 0x0a, 0x6b, 0x3d, 0x24, 0xe8, 0x27, 0xbe, 0x94, 0xea, 0x94, 0xbe, 0x73, 0xe6, 0x13, 0xbe, 0xa9, 0x32, 0x90, 0x3c, 0x57, 0x0c, 0x3e, 0x3e, 0xd6, 0x94, 0x90, 0x3e, 0x1b, 0xaf, 0x9b, 0x3d, 0xc1, 0xc6, 0x6b, 0x3e, 0x35, 0x6a, 0x21, 0xbe, 0x76, 0xf7, 0x95, 0x3c, 0xad, 0xa5, 0x78, 0x3e, 0x74, 0xb2, 0x68, 0x3e, 0xec, 0x6c, 0x46, 0x3e, 0x2c, 0xb2, 0xbb, 0x3c, 0x67, 0x29, 0x1b, 0x3d, 0xfc, 0xa7, 0x97, 0xbe, 0x1c, 0xfb, 0xd7, 0xbd, 0x26, 0x2e, 0x51, 0xbd, 0xff, 0x0e, 0x9b, 0xbe, 0xd5, 0x17, 0x81, 0xbe, 0xdb, 0xad, 0x4d, 0xbd, 0xf0, 0xe7, 0x8e, 0x3e, 0x52, 0x17, 0xaa, 0xbe, 0xca, 0xae, 0x37, 0x3e, 0xc9, 0xca, 0x84, 0x3e, 0x5c, 0xe3, 0x7d, 0xbd, 0xa7, 0x42, 0x87, 0xbd, 0x1b, 0x54, 0xa2, 0xbc, 0x3d, 0x7c, 0xcd, 0xbe, 0x61, 0xaf, 0xcb, 0xbe, 0xee, 0xe1, 0x37, 0xbe, 0xb5, 0x5f, 0x88, 0x3e, 0x07, 0x6d, 0x28, 0x3e, 0x8c, 0x99, 0x61, 0x3d, 0xfb, 0x15, 0x88, 0x3e, 0x91, 0x4b, 0xa3, 0xbd, 0x29, 0x04, 0x52, 0xbd, 0xb8, 0xe5, 0x80, 0xbd, 0x69, 0x09, 0x8e, 0x3e, 0x01, 0x29, 0xc8, 0x3d, 0x2d, 0x5d, 0x22, 0xbe, 0x5e, 0xbe, 0x67, 0xbe, 0x69, 0x79, 0xb8, 0xbe, 0x28, 0x17, 0xf4, 0x3d, 0xaa, 0x42, 0xd3, 0xbd, 0x1b, 0x19, 0x31, 0xbd, 0x37, 0x54, 0x0d, 0x3e, 0xe2, 0x42, 0x80, 0x3d, 0x52, 0xc1, 0xeb, 0xbd, 0x28, 0xf7, 0xa3, 0x3e, 0xc7, 0xc5, 0x68, 0x3e, 0x63, 0x93, 0x10, 0x3e, 0x44, 0x7b, 0x0e, 0xbe, 0xa5, 0x52, 0x46, 0xbd, 0x35, 0x71, 0x40, 0x3d, 0x3e, 0xd8, 0xbd, 0x3d, 0xc2, 0x78, 0x6b, 0x3d, 0xa3, 0x38, 0x61, 0xbc, 0x02, 0x34, 0xee, 0x3d, 0x98, 0x63, 0x44, 0x3e, 0xca, 0x83, 0xd4, 0x3d, 0xe0, 0x14, 0x4f, 0xbe, 0x34, 0xd7, 0x80, 0xbe, 0x64, 0x4a, 0x0f, 0xbe, 0xd6, 0xf3, 0xab, 0x3c, 0x81, 0xa6, 0xa8, 0xbe, 0x9a, 0x47, 0xdd, 0xbe, 0x3c, 0xcc, 0x3b, 0xbe, 0xf8, 0x75, 0x28, 0xbe, 0xca, 0x19, 0x86, 0x3d, 0x92, 0x53, 0xe9, 0xbd, 0x91, 0xe2, 0x00, 0xbe, 0x86, 0x9d, 0x4d, 0xbd, 0x53, 0xbd, 0x47, 0xbe, 0x8a, 0xff, 0x8e, 0xbc, 0x4c, 0x7b, 0x3d, 0xbb, 0x2d, 0x3c, 0x38, 0xbd, 0xf5, 0x17, 0x15, 0xbe, 0x5a, 0x1d, 0x1c, 0xbe, 0x49, 0xe7, 0x51, 0xbe, 0x9f, 0xed, 0x88, 0xbe, 0xd5, 0x4a, 0x32, 0x3e, 0x8b, 0xdb, 0x9e, 0xbc, 0xd1, 0x14, 0x4f, 0xbe, 0x6f, 0xd8, 0x4a, 0x3e, 0x81, 0xcf, 0x0a, 0x3e, 0x84, 0xe2, 0x06, 0x3e, 0x12, 0xa4, 0x11, 0xbd, 0x68, 0xe2, 0x4d, 0xbe, 0xf9, 0xb7, 0x3e, 0x3c, 0xd0, 0xbd, 0x71, 0xbd, 0x49, 0x08, 0x53, 0xbe, 0xae, 0x47, 0xe5, 0x3a, 0xcf, 0x44, 0x45, 0x3c, 0xc6, 0x70, 0x3a, 0xbc, 0x4d, 0x93, 0x2a, 0xbd, 0xd6, 0x2b, 0xb2, 0x3e, 0x93, 0xec, 0x9e, 0xbd, 0xfe, 0xe9, 0x86, 0x3d, 0xbe, 0xd6, 0x74, 0x3e, 0xdc, 0x31, 0x4b, 0xbe, 0xca, 0xf1, 0x5a, 0xbe, 0xe0, 0x4b, 0x27, 0x3e, 0x0d, 0xd4, 0x95, 0x3d, 0x0b, 0x67, 0x40, 0xbb, 0x1d, 0x91, 0x92, 0x3e, 0xb5, 0xdd, 0x95, 0x3e, 0x0d, 0x0b, 0x8c, 0x3e, 0xa5, 0xb7, 0x3b, 0xbd, 0xbd, 0x1b, 0x50, 0x3e, 0xfe, 0x83, 0x5c, 0x3d, 0x23, 0x97, 0xe1, 0x3d, 0x85, 0x37, 0xc0, 0xbc, 0x52, 0x55, 0xe0, 0x3d, 0x20, 0xdc, 0x43, 0xbe, 0xd8, 0x5f, 0x12, 0xbe, 0xae, 0xd1, 0xdd, 0xbd, 0x2c, 0x71, 0xed, 0xbe, 0x95, 0x83, 0x0a, 0x3e, 0x82, 0x91, 0x62, 0x3c, 0x6c, 0x7a, 0x2f, 0xbe, 0xf9, 0xcc, 0xb8, 0x3d, 0x22, 0x4f, 0xf6, 0xbc, 0xcd, 0x94, 0x15, 0x3e, 0xa8, 0x49, 0xa0, 0xbd, 0x4e, 0xac, 0x07, 0x3e, 0xe6, 0x7c, 0xa5, 0xbe, 0x4c, 0xb9, 0x8b, 0x3c, 0x14, 0x60, 0x49, 0xbe, 0x41, 0x7a, 0xac, 0x3d, 0xac, 0x42, 0x35, 0xbd, 0x73, 0x49, 0x44, 0xbe, 0xa5, 0xa6, 0x29, 0x3e, 0xa7, 0x9f, 0x24, 0x3e, 0x1e, 0xd8, 0x8e, 0xbe, 0xd7, 0xef, 0x84, 0x3c, 0x5b, 0xff, 0xc8, 0xbe, 0x23, 0xad, 0x9d, 0xbd, 0x6f, 0x9c, 0x53, 0xbe, 0x6c, 0x78, 0xdc, 0xbd, 0x73, 0x8e, 0x3f, 0xbe, 0x97, 0xa2, 0xa3, 0x3d, 0x7b, 0x29, 0xc2, 0xbd, 0x03, 0xfb, 0x35, 0xbe, 0x3d, 0x56, 0x10, 0xbe, 0x25, 0x58, 0xa4, 0xbd, 0x1c, 0x0c, 0x43, 0x3d, 0x5d, 0x58, 0x53, 0xbe, 0x6e, 0x21, 0x33, 0x3c, 0x5e, 0x04, 0x92, 0xbe, 0x26, 0xf7, 0x31, 0xbe, 0xe9, 0xde, 0x2a, 0xbe, 0x84, 0x73, 0x1d, 0xbd, 0xd8, 0x78, 0x57, 0xbe, 0x41, 0x2f, 0x3c, 0x3d, 0xeb, 0x37, 0x46, 0xbe, 0x1c, 0xb3, 0x3f, 0x3e, 0x23, 0x35, 0x51, 0x3e, 0xf2, 0x85, 0x71, 0x3e, 0xca, 0xe5, 0x80, 0x3d, 0x57, 0x30, 0x0d, 0xbe, 0x27, 0xf0, 0x80, 0xbc, 0x9a, 0x7f, 0x5d, 0xbe, 0x00, 0xed, 0x6e, 0x3e, 0xa8, 0x09, 0x85, 0x3d, 0xc0, 0x99, 0x28, 0xbe, 0xda, 0x2c, 0xa5, 0xbc, 0xc1, 0xb7, 0x8c, 0x3e, 0x09, 0x38, 0x89, 0x3e, 0xa9, 0x96, 0x40, 0xbe, 0x8b, 0xd7, 0xdc, 0xba, 0xc5, 0x06, 0x61, 0xbd, 0x6b, 0xcb, 0x93, 0xbe, 0x67, 0x48, 0x08, 0xbd, 0x37, 0xfe, 0xd2, 0xbd, 0xa4, 0x85, 0xe7, 0x3d, 0x61, 0x3e, 0x89, 0xbe, 0x21, 0x48, 0x8b, 0xbe, 0xd7, 0x7c, 0x4d, 0x3e, 0x42, 0x4a, 0x93, 0xbe, 0x91, 0xff, 0x65, 0xbd, 0xc0, 0xe3, 0x7b, 0xbe, 0x5c, 0x2e, 0x65, 0xbd, 0x38, 0xfd, 0x92, 0x3d, 0xf8, 0x80, 0xa8, 0x3b, 0xa4, 0x99, 0x2b, 0xbd, 0xd8, 0x99, 0xb1, 0xbd, 0xdd, 0x22, 0x7e, 0x3e, 0x8f, 0x7f, 0xac, 0x3e, 0x8f, 0x00, 0x0c, 0x3e, 0x4f, 0x0a, 0x26, 0xbd, 0xd6, 0x77, 0x85, 0xbd, 0x20, 0xab, 0xd7, 0xbd, 0xfd, 0xea, 0xdb, 0xbe, 0xaa, 0x4a, 0x03, 0xbe, 0xd0, 0x07, 0x40, 0xbe, 0xa3, 0x17, 0x80, 0x3d, 0x0e, 0x07, 0x6a, 0xbe, 0x6b, 0xce, 0x42, 0x3e, 0xfb, 0x67, 0xb8, 0xbe, 0x56, 0x11, 0xc2, 0xbe, 0xe9, 0xbc, 0x43, 0xbe, 0xb1, 0xfa, 0x09, 0x3e, 0xa0, 0xef, 0xbc, 0x3d, 0x5b, 0x9d, 0xf4, 0x3c, 0xb0, 0x0c, 0xa3, 0x3e, 0x18, 0x7d, 0x6c, 0xbd, 0xca, 0x34, 0xfe, 0xbb, 0xb0, 0x80, 0xd1, 0x3e, 0x9d, 0x6a, 0x86, 0xbe, 0xaa, 0xb5, 0x83, 0xbe, 0x5a, 0x7d, 0x96, 0x3d, 0xfa, 0xe1, 0x17, 0xbe, 0xe9, 0x9d, 0xe0, 0xbc, 0xec, 0xbd, 0x3f, 0xbe, 0x24, 0x9a, 0x56, 0x3e, 0xe8, 0x6b, 0x5f, 0xbd, 0xe8, 0xbe, 0x98, 0x3b, 0x54, 0x9e, 0x3c, 0x3e, 0x6d, 0x95, 0xa2, 0xbe, 0x16, 0xd1, 0xf8, 0x3d, 0xe0, 0x5f, 0x2b, 0xbe, 0x35, 0xc4, 0x01, 0xbd, 0x47, 0x32, 0xc9, 0x3d, 0x4b, 0x3d, 0x85, 0xbe, 0x01, 0xaf, 0xdf, 0xbd, 0x9f, 0x17, 0x09, 0x3e, 0x90, 0x2d, 0x02, 0x3e, 0x9e, 0x04, 0xb4, 0xbe, 0x2a, 0x3e, 0x2a, 0xbc, 0xef, 0xc8, 0x12, 0x3e, 0xf0, 0xfe, 0x47, 0x3e, 0xad, 0xb7, 0x45, 0x3d, 0x93, 0xa4, 0x3e, 0xbe, 0xc6, 0x37, 0x8c, 0xbe, 0xb3, 0x4f, 0x76, 0x3e, 0xae, 0x88, 0x0f, 0x3c, 0x19, 0xa8, 0x0c, 0x3e, 0x3a, 0x56, 0x12, 0x3e, 0xd1, 0x94, 0x53, 0xbe, 0x0f, 0x74, 0x3c, 0xbd, 0xe6, 0xf9, 0xa9, 0xbe, 0x27, 0x0c, 0x24, 0xbe, 0xb2, 0xba, 0x89, 0x3c, 0x63, 0x6f, 0x8b, 0xbd, 0x77, 0xc6, 0x0a, 0xbe, 0x9a, 0xa4, 0x9b, 0x3d, 0xe9, 0xbb, 0xa7, 0xbe, 0xda, 0x2f, 0x77, 0x3d, 0xdd, 0xbc, 0xa0, 0xbe, 0x8f, 0x4d, 0x27, 0x3e, 0x5d, 0x05, 0xca, 0x3d, 0xc1, 0xff, 0xd1, 0xbc, 0x6f, 0x63, 0x1d, 0x3e, 0x93, 0x5a, 0x23, 0xbd, 0xa1, 0xd3, 0xa8, 0xbe, 0xc8, 0xb7, 0x9d, 0xbd, 0x96, 0xf4, 0x3b, 0x3e, 0x3a, 0x33, 0xf7, 0x3d, 0x61, 0xd8, 0xa7, 0xbe, 0xe5, 0xf3, 0x01, 0xbe, 0x42, 0x47, 0x05, 0xbe, 0xda, 0x2f, 0x47, 0xbe, 0x64, 0xdc, 0x10, 0x3e, 0x12, 0x74, 0xbb, 0xbd, 0x9b, 0x0b, 0xf0, 0x3d, 0xdf, 0x78, 0x69, 0xbe, 0x74, 0xc0, 0x0d, 0xbe, 0x57, 0xdb, 0x58, 0x3e, 0x1c, 0xbf, 0xd2, 0xbd, 0xd8, 0x1a, 0x75, 0xbd, 0x01, 0x55, 0x83, 0xbe, 0x12, 0x0e, 0x72, 0xbe, 0x20, 0x79, 0xb1, 0xbe, 0x73, 0x09, 0x4c, 0x3e, 0xb0, 0xa3, 0x35, 0xbe, 0x62, 0x70, 0x2e, 0xbe, 0x0b, 0x55, 0x31, 0xbe, 0xbe, 0xef, 0xab, 0xbe, 0x18, 0x57, 0xcd, 0x3c, 0x92, 0xb7, 0xd5, 0x3d, 0xab, 0x16, 0x31, 0x3e, 0x65, 0x7c, 0x8a, 0x3d, 0x2c, 0x9c, 0x42, 0xbe, 0x41, 0x35, 0x5e, 0x3d, 0x22, 0xe7, 0xd9, 0xbe, 0x94, 0x00, 0xce, 0xbd, 0x5b, 0x0c, 0x00, 0xbd, 0x92, 0xec, 0x01, 0x3e, 0x23, 0x10, 0x32, 0x3d, 0x18, 0x64, 0x0d, 0x3e, 0x03, 0x73, 0x26, 0x3e, 0xb3, 0x57, 0x9b, 0x3e, 0x46, 0xb3, 0xae, 0x3c, 0xbd, 0x4e, 0x26, 0xbd, 0x54, 0xb2, 0x46, 0x3e, 0xae, 0x46, 0x81, 0xbe, 0xc1, 0xc3, 0xe5, 0x3d, 0x16, 0xb3, 0x0e, 0xbe, 0x02, 0x40, 0x5a, 0xbe, 0x36, 0x97, 0xb8, 0xbd, 0x71, 0x15, 0x93, 0xbe, 0xe3, 0xa0, 0xa6, 0x3e, 0x79, 0x71, 0x7b, 0x3e, 0xd9, 0x66, 0x1b, 0xbe, 0xae, 0xc0, 0x80, 0xbb, 0x3f, 0xd1, 0x80, 0x3e, 0x8f, 0x8e, 0x23, 0xbe, 0x82, 0xfc, 0xbf, 0x3d, 0xb6, 0xa9, 0xeb, 0x3d, 0x1b, 0xbb, 0x2b, 0x3c, 0x09, 0x26, 0x89, 0x3d, 0x4e, 0xc4, 0x0c, 0xbd, 0xa2, 0xca, 0x81, 0x3e, 0xcc, 0x63, 0x9b, 0x3d, 0xd0, 0xc8, 0xa5, 0xbd, 0x99, 0xac, 0x84, 0x3e, 0x13, 0x5a, 0xf1, 0x3d, 0xb1, 0x9e, 0x29, 0x3e, 0x8f, 0xb6, 0x13, 0xbe, 0x53, 0x27, 0xdc, 0xbd, 0xe9, 0xf2, 0xcc, 0xbe, 0xb2, 0x33, 0xde, 0xbd, 0x02, 0xe2, 0x61, 0xbd, 0x68, 0x26, 0x91, 0xbe, 0xf2, 0xf7, 0x25, 0xbd, 0x5b, 0xfa, 0xd4, 0xbe, 0x69, 0x82, 0xda, 0xbe, 0x8b, 0xcd, 0x94, 0xbe, 0x6d, 0x2b, 0x13, 0xbd, 0x0a, 0x9f, 0x00, 0xbd, 0x7b, 0x3a, 0xcd, 0x3d, 0x6d, 0x3c, 0x91, 0x3d, 0xd6, 0x2f, 0x0c, 0x3e, 0xdd, 0x4f, 0x63, 0xbe, 0x42, 0xd9, 0xdf, 0x3c, 0x9b, 0xeb, 0x1e, 0x3e, 0x06, 0xed, 0x06, 0xbf, 0xdf, 0x65, 0x8f, 0xbe, 0xf2, 0x0c, 0x08, 0x3e, 0xc6, 0xcf, 0x06, 0xbe, 0x24, 0xe0, 0x72, 0x3e, 0x20, 0x85, 0x33, 0x3d, 0x68, 0x23, 0x49, 0x3d, 0x9b, 0x2b, 0x42, 0x3d, 0x7a, 0xab, 0x0b, 0x3e, 0x5d, 0x37, 0x1c, 0xbe, 0xae, 0x11, 0x87, 0xbd, 0x8e, 0xa5, 0x43, 0xbe, 0x98, 0xdf, 0x3e, 0xbe, 0x33, 0x36, 0x29, 0x3d, 0x98, 0x59, 0x8c, 0xbe, 0xff, 0xe1, 0x89, 0xbe, 0x41, 0xd7, 0x8f, 0xbe, 0x25, 0x3e, 0x62, 0x3e, 0x78, 0xd9, 0x2a, 0xbe, 0x6b, 0x06, 0xd6, 0x3d, 0x78, 0xc7, 0x4a, 0x3e, 0x73, 0xa2, 0xd1, 0xbc, 0xbc, 0x24, 0xa2, 0xbc, 0xfc, 0x93, 0xa9, 0x3d, 0x83, 0x13, 0xac, 0xbb, 0xb0, 0x6e, 0x25, 0x3e, 0x02, 0x4a, 0x54, 0xbe, 0x2d, 0xd4, 0x5a, 0x3e, 0x94, 0x07, 0x00, 0xbe, 0xb9, 0xc1, 0xab, 0x3e, 0x78, 0x80, 0xdb, 0x3b, 0x15, 0x82, 0x9a, 0xbd, 0xf7, 0xd7, 0xf4, 0x3c, 0x96, 0x2e, 0x6d, 0x3e, 0xea, 0x9c, 0x59, 0x3e, 0x31, 0x86, 0x85, 0x3e, 0xde, 0x05, 0xfe, 0x3d, 0x58, 0x12, 0x53, 0x3e, 0x2c, 0xcc, 0x70, 0xbe, 0x69, 0xca, 0x7e, 0x3e, 0xdb, 0xfe, 0x18, 0xbd, 0xa0, 0x88, 0x9e, 0xbe, 0xe4, 0xc6, 0x92, 0x3d, 0x80, 0x61, 0x70, 0xbd, 0xc8, 0x96, 0xac, 0x3c, 0xaa, 0x2d, 0x4b, 0xbe, 0xf7, 0x08, 0xa3, 0x3d, 0x04, 0xa6, 0xfd, 0xbd, 0x31, 0xa1, 0xa6, 0xbe, 0x29, 0x5c, 0x48, 0x3e, 0xe3, 0xd5, 0xc1, 0xbe, 0x9e, 0xfc, 0x8d, 0x3b, 0x2e, 0x6f, 0x4f, 0x3e, 0x7d, 0xa7, 0xa2, 0xbd, 0x1e, 0x89, 0xc6, 0xbd, 0x1a, 0x9d, 0x54, 0x3e, 0x73, 0xa8, 0x37, 0xbd, 0x14, 0xe2, 0x1e, 0x3e, 0x35, 0xa3, 0x25, 0xbe, 0x4a, 0xfc, 0x17, 0x3e, 0x09, 0xa5, 0x18, 0x3e, 0x0a, 0xb6, 0x64, 0x3d, 0x3b, 0xda, 0x78, 0xbe, 0xb3, 0x3b, 0x16, 0xbe, 0x0d, 0xa0, 0x29, 0x3e, 0x2d, 0x1c, 0xa8, 0xbe, 0x07, 0x0e, 0x1a, 0xbd, 0xe9, 0x28, 0x8f, 0xbe, 0x51, 0xa5, 0x62, 0x3e, 0xec, 0x1a, 0x9b, 0xbe, 0x5a, 0x17, 0x0c, 0x3e, 0x03, 0xfb, 0x84, 0xbe, 0x2a, 0x24, 0x79, 0xbe, 0x19, 0x8e, 0x86, 0x3d, 0x82, 0xdf, 0x03, 0x3d, 0xad, 0x61, 0x4b, 0x3e, 0x5c, 0xbe, 0x70, 0x3d, 0xbd, 0x20, 0xe1, 0x3d, 0x29, 0x46, 0xa6, 0xbe, 0xd4, 0xb8, 0x24, 0x3e, 0x1a, 0x05, 0x75, 0xbe, 0x8c, 0xb8, 0xa4, 0xbd, 0x84, 0x86, 0x7a, 0x3e, 0xfe, 0xf6, 0x0a, 0x3e, 0x38, 0x4e, 0x10, 0xbe, 0x14, 0xad, 0x03, 0x3e, 0x67, 0xad, 0x20, 0x3e, 0x59, 0xda, 0x68, 0x3e, 0x9f, 0x48, 0x15, 0xbd, 0x75, 0xcb, 0x56, 0x3d, 0xaf, 0x5c, 0x89, 0xbe, 0x77, 0x55, 0x34, 0xbe, 0x18, 0x94, 0x1c, 0x3e, 0xef, 0x30, 0xec, 0x3d, 0xa1, 0x9b, 0x92, 0xbe, 0xe8, 0xa0, 0x98, 0xbd, 0xf4, 0x99, 0x32, 0xbe, 0x95, 0xd6, 0x17, 0x3e, 0xe0, 0x60, 0xe5, 0xbd, 0xbb, 0xd2, 0x0e, 0x3e, 0xff, 0xbf, 0xc8, 0xbd, 0x80, 0x02, 0x55, 0x3c, 0x34, 0x11, 0xe1, 0xbd, 0x88, 0xf6, 0xff, 0xbd, 0x40, 0x38, 0xda, 0xbd, 0xd8, 0x5e, 0x15, 0x3d, 0x46, 0x2d, 0x87, 0xbe, 0x8c, 0xe4, 0x8b, 0xbe, 0x2c, 0x98, 0xc7, 0x3d, 0x60, 0x23, 0x7b, 0xbd, 0x08, 0xdd, 0xc4, 0xbd, 0xe8, 0xad, 0x4b, 0xbd, 0x36, 0x1b, 0x6e, 0xbe, 0x22, 0xfe, 0x44, 0x3e, 0x54, 0x4e, 0xba, 0x3d, 0xc8, 0xeb, 0x50, 0xbd, 0xac, 0xb0, 0xd0, 0xbd, 0x2d, 0xa5, 0x58, 0xbe, 0x84, 0x6e, 0xc6, 0x3d, 0xc3, 0xda, 0x5e, 0xbe, 0x10, 0x94, 0xd3, 0x3c, 0x8e, 0xf0, 0x69, 0x3e, 0x90, 0xa3, 0x9b, 0x3c, 0xa0, 0x2f, 0x68, 0x3c, 0x3e, 0x9d, 0x79, 0x3e, 0x2c, 0x02, 0x6a, 0xbd, 0x42, 0x2b, 0x07, 0x3e, 0x94, 0x52, 0xde, 0x3d, 0x8a, 0xaa, 0x6b, 0x3e, 0xba, 0x3f, 0xfe, 0xbd, 0x20, 0xa0, 0x4f, 0x3c, 0x50, 0x41, 0x17, 0xbd, 0x9e, 0x6b, 0xc7, 0xbd, 0x8c, 0xf0, 0xa2, 0x3c, 0xf8, 0xa5, 0x78, 0x3b, 0x1c, 0xee, 0x4c, 0x3e, 0x4e, 0x00, 0x4f, 0x3e, 0x90, 0x0e, 0x3f, 0xbe, 0xa2, 0xb5, 0x8f, 0xbe, 0xd4, 0x5f, 0x46, 0x3e, 0x46, 0x40, 0x97, 0xbe, 0xf1, 0x16, 0x0e, 0x3d, 0xb4, 0xd7, 0xc1, 0xbc, 0xb1, 0x44, 0x36, 0xbe, 0xd8, 0x36, 0xbb, 0xbe, 0x6d, 0xd3, 0xbc, 0xbb, 0x52, 0x05, 0xb5, 0xbe, 0x13, 0xf0, 0xf3, 0xbd, 0xa9, 0x16, 0x2d, 0xbe, 0x62, 0x04, 0x0f, 0x3d, 0xe3, 0xbe, 0x99, 0x3d, 0x4e, 0x0f, 0x73, 0x3e, 0x69, 0xb7, 0xa1, 0x3d, 0xa9, 0x67, 0x64, 0xbe, 0x81, 0x4c, 0xdf, 0x3d, 0x02, 0x41, 0x2f, 0xbe, 0x3a, 0x36, 0x2d, 0x3d, 0xab, 0x42, 0xa9, 0x3d, 0x09, 0x46, 0xa5, 0xbd, 0xcb, 0x82, 0x34, 0xbd, 0x3b, 0xf2, 0x52, 0xbe, 0xd5, 0x6d, 0x15, 0x3e, 0xbc, 0x8f, 0xce, 0xbd, 0xdf, 0x27, 0x45, 0x3e, 0x3e, 0xda, 0x57, 0xbc, 0xc2, 0x8a, 0x3c, 0xbe, 0xe0, 0x66, 0xae, 0xbc, 0x9e, 0x6d, 0x65, 0xbe, 0x8c, 0xe7, 0x2c, 0x3e, 0xd2, 0x8f, 0x60, 0x3e, 0xec, 0x74, 0x72, 0xbd, 0x54, 0x44, 0x17, 0xbe, 0x9a, 0x28, 0x2e, 0x3e, 0x38, 0x8b, 0x55, 0xbe, 0x83, 0x6f, 0x2f, 0xbe, 0x15, 0x37, 0x82, 0x3e, 0x74, 0x78, 0x97, 0x3d, 0x6a, 0x2b, 0x7d, 0xbe, 0x80, 0x70, 0x52, 0x3c, 0xff, 0x45, 0x66, 0xbe, 0x10, 0x50, 0x0a, 0x3e, 0x62, 0x05, 0x28, 0x3e, 0x07, 0xc7, 0x6d, 0xbe, 0x17, 0x24, 0x27, 0xbe, 0x4c, 0x8b, 0xe5, 0xbd, 0xc8, 0x05, 0x00, 0x3d, 0x78, 0x03, 0xd2, 0x3d, 0x37, 0x84, 0x5b, 0xbe, 0xac, 0x53, 0x0d, 0x3e, 0xc2, 0xc8, 0x66, 0xbe, 0x86, 0x9f, 0x62, 0x3e, 0x60, 0x67, 0x3d, 0xbc, 0x9a, 0x3e, 0x7d, 0x3e, 0x11, 0xbf, 0x91, 0x3e, 0xbe, 0xec, 0xd2, 0xbd, 0x6b, 0xf2, 0x9b, 0xbe, 0xc1, 0x18, 0x2e, 0xbe, 0x03, 0x94, 0x1a, 0x3d, 0x9a, 0xa1, 0xfb, 0x3d, 0xba, 0x4f, 0x3b, 0xbe, 0x3e, 0x2c, 0x04, 0xbd, 0x8d, 0xb7, 0xf8, 0x3d, 0x7e, 0x5e, 0xe4, 0xbd, 0xec, 0x02, 0x8c, 0xbe, 0x01, 0x48, 0x30, 0xbe, 0xd5, 0xfc, 0x14, 0xbe, 0xea, 0x87, 0xbc, 0xbe, 0xe6, 0x38, 0xaa, 0x3d, 0xa5, 0x03, 0x86, 0xbe, 0xfe, 0xc9, 0x9a, 0x3e, 0x12, 0x57, 0x8a, 0x3d, 0x26, 0xd0, 0x6f, 0x3e, 0xa6, 0x97, 0x73, 0x3d, 0xf2, 0xaf, 0x44, 0x3e, 0xb3, 0x8f, 0x45, 0x3d, 0xf7, 0x94, 0x01, 0x3e, 0x29, 0xbc, 0xd4, 0xbb, 0x60, 0x79, 0xa2, 0xbe, 0x1e, 0xfe, 0x0c, 0xbe, 0xa7, 0xf8, 0xba, 0x3d, 0x2a, 0xda, 0x2c, 0xbe, 0x30, 0xe1, 0x8c, 0xbe, 0x08, 0x91, 0x1b, 0x3e, 0x77, 0x7c, 0x13, 0x3e, 0x8d, 0x42, 0x77, 0x3e, 0xdd, 0x67, 0xfa, 0xbd, 0x3b, 0x97, 0x18, 0x3e, 0x20, 0x04, 0xcb, 0x3d, 0xb5, 0xe6, 0xbb, 0xbd, 0xe9, 0xc6, 0x31, 0xbd, 0x20, 0x99, 0x29, 0x3d, 0x85, 0xe9, 0x55, 0xbe, 0x30, 0xf3, 0x08, 0x3d, 0xc2, 0x02, 0x33, 0x3e, 0x79, 0x29, 0xaa, 0xbe, 0xee, 0x42, 0x05, 0x3e, 0x24, 0x93, 0x3f, 0xbe, 0x21, 0x9a, 0x35, 0x3d, 0x13, 0x1c, 0x92, 0x3d, 0xcd, 0x48, 0x7e, 0x3e, 0x93, 0x09, 0x90, 0xbc, 0x0c, 0x0b, 0x4f, 0xbd, 0xb4, 0xe4, 0x77, 0x3e, 0x90, 0xd9, 0x4c, 0xbe, 0xce, 0x5d, 0x81, 0x3e, 0x53, 0xec, 0xde, 0xbd, 0x98, 0x00, 0x0a, 0x3d, 0x37, 0x59, 0x2b, 0xbc, 0x0a, 0x06, 0x81, 0x3e, 0xc8, 0x08, 0x8b, 0x3e, 0xcd, 0xc4, 0x87, 0x3d, 0x59, 0x20, 0xc6, 0xbe, 0x31, 0x23, 0x21, 0xbe, 0xf9, 0x52, 0xf3, 0xbd, 0x7e, 0xff, 0x12, 0xbb, 0x74, 0x93, 0xc5, 0xbd, 0x44, 0xbe, 0x9e, 0x3b, 0x4d, 0x3d, 0x76, 0xbb, 0x44, 0x24, 0xdc, 0x3c, 0x0b, 0x48, 0xee, 0x3b, 0x7c, 0x53, 0x75, 0xbe, 0x6a, 0x15, 0x76, 0xbe, 0x7c, 0x64, 0xdd, 0xbd, 0x18, 0xe5, 0x92, 0xbe, 0xce, 0x14, 0xb7, 0xbd, 0x32, 0x87, 0x4b, 0x3e, 0x92, 0xee, 0xec, 0xbd, 0xea, 0x75, 0x7f, 0xbe, 0xc0, 0xd6, 0x60, 0xbc, 0x25, 0xb3, 0x3d, 0xbe, 0xa2, 0xf9, 0x02, 0xbe, 0x00, 0x6e, 0xcf, 0x3b, 0xc2, 0x43, 0x86, 0xbe, 0xae, 0x4e, 0x2c, 0xbe, 0xb3, 0xb6, 0x83, 0x3e, 0xc2, 0x02, 0x09, 0x3e, 0x9b, 0x88, 0x41, 0xbe, 0x14, 0x10, 0x42, 0x3e, 0x67, 0x78, 0x04, 0xbe, 0x7a, 0xf2, 0xe8, 0xbd, 0x40, 0xd4, 0xa1, 0x3c, 0x82, 0xe0, 0x89, 0xbe, 0xfc, 0x8c, 0x89, 0x3d, 0x50, 0xb9, 0xcb, 0xbd, 0x04, 0x54, 0x3f, 0x3e, 0x00, 0x32, 0xf9, 0x3b, 0xd2, 0x77, 0x8b, 0xbe, 0x10, 0x6a, 0x51, 0x3d, 0x06, 0x81, 0x39, 0x3e, 0x86, 0x50, 0x4b, 0x3e, 0x00, 0x57, 0x77, 0xbc, 0xa6, 0xae, 0xb5, 0xbd, 0x68, 0xf7, 0x1e, 0x3e, 0xc4, 0x16, 0x71, 0x3d, 0x55, 0xc3, 0x01, 0x3e, 0x19, 0x72, 0x4b, 0x3e, 0x2e, 0xe2, 0xcd, 0xbd, 0x61, 0x42, 0xa5, 0xbe, 0x4b, 0xf1, 0xf6, 0xbd, 0x66, 0x18, 0x17, 0x3e, 0xa7, 0x2f, 0x12, 0x3e, 0xf7, 0xe7, 0x1c, 0xbe, 0x8c, 0x19, 0x54, 0x3e, 0x1b, 0x81, 0x68, 0xbd, 0xba, 0xfd, 0x97, 0xbe, 0x92, 0xa6, 0x5d, 0xbe, 0xac, 0xb9, 0xb1, 0xbe, 0xce, 0x04, 0x92, 0xbe, 0x6c, 0xa9, 0x33, 0xbe, 0x3b, 0x51, 0xe9, 0x3d, 0x30, 0x17, 0x55, 0x3d, 0x21, 0x6f, 0x49, 0xbe, 0x14, 0xd3, 0x96, 0xbe, 0xf3, 0x25, 0xa3, 0xbd, 0x10, 0x0a, 0x07, 0x3d, 0x5f, 0x98, 0x46, 0xbe, 0xb1, 0xad, 0x5b, 0x3e, 0xc6, 0xc2, 0x20, 0x3e, 0xb3, 0x30, 0xc8, 0x3c, 0x8a, 0x47, 0x51, 0x3e, 0xe9, 0x47, 0x0c, 0x3d, 0xe9, 0xc5, 0x6b, 0x3e, 0x5c, 0x47, 0x33, 0xbe, 0x1f, 0x34, 0x13, 0xbe, 0x24, 0x15, 0xaa, 0x3d, 0x5e, 0x4f, 0x17, 0x3e, 0x75, 0x1a, 0xbc, 0x3c, 0xd9, 0xe4, 0x0b, 0x3e, 0x6d, 0x87, 0x28, 0xbe, 0x90, 0x75, 0x87, 0x3e, 0x72, 0x16, 0x33, 0x3e, 0xc9, 0x5b, 0x81, 0xbe, 0x90, 0xc0, 0x5f, 0x3e, 0x0e, 0xea, 0x26, 0xbe, 0xe8, 0xfb, 0xa5, 0xbe, 0x31, 0x72, 0x63, 0xbd, 0xca, 0x12, 0x08, 0x3d, 0xe0, 0xc0, 0xa3, 0xbe, 0xed, 0x7e, 0xa0, 0xbe, 0x4c, 0x66, 0xf7, 0xbd, 0xe7, 0x98, 0x64, 0xbd, 0xb7, 0x0c, 0x33, 0x3d, 0x9d, 0x44, 0x6b, 0xbd, 0x92, 0x60, 0xd0, 0xbe, 0xa9, 0x35, 0x06, 0x3e, 0x49, 0x5d, 0xaf, 0xbe, 0x12, 0x2b, 0x4d, 0x3d, 0x5e, 0x0d, 0x3c, 0xbe, 0x77, 0xcc, 0x3a, 0x3e, 0x1e, 0x43, 0x2a, 0xbe, 0x28, 0xba, 0xe5, 0xbd, 0x1e, 0x3e, 0x8e, 0x3e, 0x09, 0xc3, 0x23, 0x3e, 0x1a, 0x08, 0x51, 0x3e, 0x16, 0xbf, 0x1c, 0x3e, 0xa2, 0x3e, 0x9e, 0x3e, 0xb3, 0xc2, 0xa3, 0xbd, 0xa0, 0x7c, 0xcc, 0xbd, 0xca, 0x5b, 0x3f, 0xbe, 0xe0, 0x24, 0x4e, 0x3d, 0x96, 0x06, 0x61, 0xbe, 0x2e, 0x16, 0x55, 0x3e, 0x12, 0x9f, 0x9a, 0xbd, 0xf5, 0x71, 0x57, 0xbe, 0x38, 0xcd, 0x53, 0xbe, 0x58, 0x93, 0x7e, 0x3d, 0x60, 0xa4, 0x95, 0x3d, 0x79, 0x4c, 0x2d, 0xbe, 0xde, 0x87, 0x0a, 0xbe, 0xf8, 0xb7, 0x41, 0x3e, 0x37, 0x7b, 0x1f, 0xbe, 0x42, 0x72, 0x80, 0xbd, 0x60, 0xce, 0x97, 0xbc, 0xb2, 0x07, 0x18, 0x3e, 0xc0, 0xc6, 0x89, 0xbe, 0x2f, 0x6f, 0x91, 0xbe, 0xa0, 0x91, 0xc7, 0xbc, 0x26, 0x8b, 0x54, 0xbe, 0x52, 0xf7, 0x55, 0x3e, 0x09, 0x71, 0x68, 0xbe, 0xd2, 0xf4, 0x33, 0x3e, 0xb8, 0xb5, 0x6e, 0xbd, 0x30, 0xf2, 0x3b, 0x3d, 0x40, 0x2c, 0x6b, 0xbe, 0x10, 0xc8, 0x3e, 0x3d, 0x68, 0xcc, 0x2a, 0xbe, 0xa0, 0xee, 0xc4, 0xbc, 0x5b, 0xb1, 0x83, 0x3e, 0x16, 0x1a, 0x1a, 0xbe, 0xfa, 0xe5, 0x9f, 0x3c, 0x77, 0x8f, 0xdb, 0x3d, 0x64, 0xa7, 0x63, 0xbe, 0xfe, 0x3d, 0x6d, 0xbe, 0x6a, 0x2a, 0x1a, 0xbe, 0xda, 0x40, 0x44, 0xbe, 0x73, 0x38, 0x1a, 0x3e, 0x63, 0xa8, 0xa0, 0x3c, 0xd5, 0x41, 0x49, 0x3e, 0x2d, 0xbd, 0x7d, 0x3e, 0x0b, 0xd7, 0x00, 0xbe, 0x8f, 0x64, 0x78, 0x3e, 0xfd, 0x3c, 0x43, 0xbe, 0xde, 0xfe, 0x37, 0x3e, 0xb1, 0xa5, 0x54, 0x3c, 0x8a, 0x1f, 0x7d, 0x3c, 0x73, 0x1a, 0x19, 0x3d, 0x1c, 0xdb, 0x2f, 0xbd, 0xad, 0xe7, 0x74, 0x3e, 0x7f, 0xbb, 0x37, 0xbe, 0xc0, 0xd2, 0x87, 0xbe, 0xbc, 0xdb, 0x0f, 0xbe, 0x3f, 0x57, 0x4c, 0x3d, 0xe6, 0x51, 0x7a, 0xbe, 0x2c, 0x84, 0x46, 0xbe, 0xba, 0x1c, 0x53, 0x3d, 0x6b, 0x7f, 0xf1, 0x3d, 0xc3, 0xc1, 0x5c, 0xbe, 0x3f, 0x83, 0x82, 0xbe, 0x5e, 0xff, 0xd7, 0x3c, 0x31, 0xa2, 0x03, 0x3e, 0xc5, 0x54, 0x43, 0x3e, 0x7e, 0xbe, 0x39, 0xbe, 0x85, 0xf6, 0x24, 0xbd, 0xbb, 0xe1, 0xee, 0x3d, 0xa9, 0xe6, 0xe1, 0x3d, 0xfc, 0x3f, 0x60, 0xbe, 0x1e, 0x26, 0x9f, 0xbe, 0xee, 0x54, 0x6e, 0x3e, 0xb8, 0x32, 0x0f, 0xbe, 0x69, 0x6b, 0x00, 0x3e, 0xf6, 0xaf, 0x4e, 0x3e, 0xc5, 0xf2, 0xab, 0xbe, 0xdc, 0x7b, 0xe5, 0x3d, 0x75, 0x6f, 0x3b, 0xbc, 0xa3, 0xdc, 0xce, 0xbd, 0x2d, 0x52, 0x2e, 0x3e, 0x03, 0xb9, 0x1f, 0xbe, 0xe7, 0x40, 0x87, 0xbe, 0xdc, 0x1c, 0x9b, 0x3e, 0xb9, 0x49, 0x72, 0x3d, 0x38, 0x21, 0x92, 0xbe, 0x73, 0x39, 0x98, 0xbe, 0x0b, 0xbf, 0x8f, 0x3e, 0xd8, 0xf4, 0x0b, 0x3d, 0x07, 0xf5, 0x89, 0xbe, 0xad, 0xc1, 0xe5, 0x3d, 0xb3, 0x20, 0x32, 0x3e, 0xbb, 0x0a, 0xf0, 0xbd, 0xc0, 0x21, 0x96, 0x3e, 0xc6, 0x46, 0x7f, 0xbe, 0xb0, 0x07, 0x86, 0x3d, 0xcb, 0x11, 0xb8, 0x3d, 0x08, 0x68, 0x60, 0x3e, 0x2b, 0x2a, 0x4f, 0x3e, 0xae, 0xe6, 0x31, 0x3d, 0x7d, 0x13, 0x31, 0xbc, 0xfb, 0xff, 0xd7, 0x3d, 0x55, 0xf8, 0x20, 0x3e, 0x87, 0x0b, 0x5b, 0x3d, 0xf6, 0x97, 0xa1, 0xbb, 0x7d, 0xe0, 0x20, 0xbe, 0x42, 0xe4, 0x2d, 0x3e, 0xa7, 0xc9, 0x7b, 0x3c, 0xdf, 0x36, 0xc7, 0x3c, 0x7a, 0x5b, 0x19, 0xbe, 0xa1, 0x71, 0xb8, 0xbc, 0xd4, 0x6a, 0xb8, 0xbe, 0xfb, 0xb3, 0x34, 0xbe, 0x28, 0x23, 0x8a, 0xbe, 0x09, 0x05, 0x70, 0xbe, 0x22, 0x69, 0x81, 0xbe, 0x35, 0xc1, 0x8f, 0xbd, 0xd2, 0x04, 0x89, 0x3d, 0x95, 0x49, 0x8c, 0x3e, 0xd0, 0xbf, 0x00, 0xbe, 0x19, 0xc4, 0x4f, 0xbd, 0xe0, 0xdb, 0x5f, 0xbe, 0xe1, 0xde, 0x28, 0x3e, 0xcb, 0x73, 0x0d, 0xbe, 0x34, 0xb9, 0x8a, 0xbe, 0x85, 0x04, 0xe9, 0xbd, 0x8f, 0xda, 0x43, 0xbe, 0xa8, 0x33, 0xc1, 0xbd, 0x70, 0xc4, 0xd7, 0x3d, 0x4e, 0x9c, 0x88, 0x3b, 0xe8, 0xef, 0x14, 0xbd, 0x70, 0xd8, 0xe7, 0xbd, 0x56, 0x1f, 0x8e, 0xbe, 0x7d, 0x82, 0x1d, 0xbe, 0x54, 0x53, 0x20, 0x3e, 0xa8, 0x03, 0x49, 0xbd, 0xa6, 0x1b, 0x97, 0xbd, 0xe0, 0x08, 0x6d, 0x3c, 0x38, 0xeb, 0xb7, 0x3d, 0xc0, 0x8f, 0x9b, 0xbe, 0xe0, 0x24, 0xf8, 0xbd, 0x2f, 0x9a, 0x90, 0xbe, 0x87, 0xb9, 0x08, 0xbe, 0xe1, 0xa6, 0x58, 0xbe, 0x9a, 0x57, 0xde, 0xbd, 0xf6, 0x3e, 0x92, 0xbd, 0xac, 0xb7, 0x5b, 0xbe, 0x8c, 0xfd, 0x11, 0x3e, 0xd7, 0x6c, 0x9c, 0x3e, 0x52, 0x59, 0x95, 0xbe, 0x00, 0x3a, 0x18, 0xbd, 0xd2, 0x61, 0x4f, 0x3e, 0x6a, 0xc1, 0xa3, 0xbd, 0xd1, 0x44, 0x96, 0xbe, 0x9b, 0xcd, 0x48, 0xbe, 0xe0, 0x3f, 0x87, 0xbc, 0x40, 0xf8, 0xe1, 0x3c, 0x20, 0xcc, 0x05, 0xbc, 0x78, 0x2d, 0x46, 0x3e, 0x00, 0x71, 0x88, 0xbd, 0x58, 0x58, 0x43, 0xbe, 0x86, 0x7f, 0x40, 0x3e, 0x4e, 0xf1, 0x6a, 0x3e, 0x99, 0x72, 0x00, 0x3d, 0x0e, 0xdf, 0x75, 0xbe, 0x7c, 0xca, 0xe2, 0x3b, 0x0f, 0x14, 0x7c, 0xbe, 0xfd, 0x22, 0x1d, 0x3e, 0x20, 0xa8, 0x85, 0xbd, 0xae, 0x22, 0x21, 0x3e, 0x6d, 0xc0, 0x3a, 0x3e, 0x97, 0xcc, 0x24, 0xbe, 0x17, 0x6f, 0x97, 0xbe, 0xd7, 0x83, 0x3b, 0xbe, 0xb0, 0xd5, 0x5c, 0xbe, 0xd1, 0x29, 0x46, 0xbe, 0x48, 0xa7, 0xd2, 0xbd, 0x4d, 0x73, 0x26, 0x3e, 0x3f, 0x1b, 0xc4, 0xbd, 0x91, 0xd2, 0x7a, 0xbd, 0x68, 0x58, 0x2e, 0xbc, 0x05, 0x6d, 0x16, 0x3e, 0x52, 0x50, 0x2f, 0xbe, 0xc9, 0xb1, 0x42, 0x3e, 0x5f, 0x8d, 0xab, 0xbc, 0xb5, 0xf8, 0x25, 0xbe, 0x5c, 0xbc, 0xb7, 0xbd, 0x87, 0x50, 0xea, 0xbd, 0x66, 0x62, 0xbc, 0x3d, 0x08, 0xe6, 0x80, 0x3e, 0x22, 0x20, 0x18, 0x3e, 0xf4, 0x43, 0x64, 0xbe, 0x84, 0x80, 0x10, 0x3e, 0xe1, 0x90, 0xaa, 0xbe, 0x3c, 0x5c, 0x55, 0xbe, 0x48, 0x22, 0xc4, 0x3d, 0x4f, 0xf4, 0x18, 0x3e, 0xc3, 0xe9, 0x5b, 0xbd, 0x0d, 0xef, 0x63, 0x3e, 0x0d, 0xf7, 0x16, 0xbe, 0x73, 0x2b, 0x3b, 0xbe, 0xe3, 0x77, 0x18, 0x3e, 0x8b, 0xd8, 0xbc, 0xbd, 0x22, 0x9b, 0x80, 0xbd, 0x3f, 0x51, 0x86, 0x3d, 0x9c, 0x67, 0x97, 0xbd, 0xd3, 0x9b, 0x9d, 0xbe, 0xbc, 0x43, 0xf9, 0x3d, 0x99, 0xb0, 0x45, 0x3e, 0x97, 0x05, 0x83, 0x3d, 0xa5, 0xbc, 0x49, 0xbe, 0x27, 0x23, 0x26, 0xbe, 0xf0, 0xb7, 0x4b, 0xbe, 0xe9, 0xd0, 0xf3, 0x3b, 0xfd, 0xb9, 0x7b, 0x3e, 0x2e, 0x7c, 0x71, 0x3e, 0xe8, 0xd5, 0x4b, 0xbe, 0x56, 0xc1, 0x65, 0xbe, 0x5e, 0xe3, 0xae, 0xbd, 0x60, 0x6e, 0xdb, 0xbd, 0x44, 0xb2, 0x58, 0xbe, 0x89, 0xa7, 0x51, 0xbd, 0x55, 0x93, 0x88, 0xbe, 0x1b, 0xc7, 0x4c, 0xbc, 0x4b, 0xa6, 0x61, 0xbd, 0x17, 0x6c, 0x97, 0xbe, 0x32, 0xf7, 0xff, 0xff, 0x10, 0x00, 0x00, 0x00, 0x08, 0x00, 0x00, 0x00, 0x14, 0x00, 0x00, 0x00, 0x2c, 0x00, 0x00, 0x00, 0x02, 0x00, 0x00, 0x00, 0x01, 0x00, 0x00, 0x00, 0x20, 0x00, 0x00, 0x00, 0x15, 0x00, 0x00, 0x00, 0x73, 0x65, 0x71, 0x75, 0x65, 0x6e, 0x74, 0x69, 0x61, 0x6c, 0x2f, 0x64, 0x65, 0x6e, 0x73, 0x65, 0x2f, 0x52, 0x65, 0x6c, 0x75, 0x00, 0x00, 0x00, 0xd4, 0xf5, 0xff, 0xff, 0x72, 0xf7, 0xff, 0xff, 0x10, 0x00, 0x00, 0x00, 0x07, 0x00, 0x00, 0x00, 0x14, 0x00, 0x00, 0x00, 0x28, 0x00, 0x00, 0x00, 0x02, 0x00, 0x00, 0x00, 0x01, 0x00, 0x00, 0x00, 0x20, 0x00, 0x00, 0x00, 0x0b, 0x00, 0x00, 0x00, 0x64, 0x65, 0x6e, 0x73, 0x65, 0x5f, 0x69, 0x6e, 0x70, 0x75, 0x74, 0x00, 0x08, 0x00, 0x0c, 0x00, 0x04, 0x00, 0x08, 0x00, 0x08, 0x00, 0x00, 0x00, 0x10, 0x00, 0x00, 0x00, 0x04, 0x00, 0x00, 0x00, 0x01, 0x00, 0x00, 0x00, 0x00, 0x00, 0x7f, 0x43, 0x01, 0x00, 0x00, 0x00, 0x00, 0x00, 0x00, 0x00, 0xc6, 0xf7, 0xff, 0xff, 0x10, 0x00, 0x00, 0x00, 0x06, 0x00, 0x00, 0x00, 0x14, 0x00, 0x00, 0x00, 0x30, 0x00, 0x00, 0x00, 0x02, 0x00, 0x00, 0x00, 0x01, 0x00, 0x00, 0x00, 0x03, 0x00, 0x00, 0x00, 0x1a, 0x00, 0x00, 0x00, 0x73, 0x65, 0x71, 0x75, 0x65, 0x6e, 0x74, 0x69, 0x61, 0x6c, 0x2f, 0x64, 0x65, 0x6e, 0x73, 0x65, 0x5f, 0x32, 0x2f, 0x42, 0x69, 0x61, 0x73, 0x41, 0x64, 0x64, 0x00, 0x00, 0x6c, 0xf6, 0xff, 0xff, 0x0a, 0xf8, 0xff, 0xff, 0x10, 0x00, 0x00, 0x00, 0x05, 0x00, 0x00, 0x00, 0x10, 0x00, 0x00, 0x00, 0x30, 0x00, 0x00, 0x00, 0x01, 0x00, 0x00, 0x00, 0x20, 0x00, 0x00, 0x00, 0x1c, 0x00, 0x00, 0x00, 0x73, 0x65, 0x71, 0x75, 0x65, 0x6e, 0x74, 0x69, 0x61, 0x6c, 0x2f, 0x64, 0x65, 0x6e, 0x73, 0x65, 0x2f, 0x4d, 0x61, 0x74, 0x4d, 0x75, 0x6c, 0x5f, 0x62, 0x69, 0x61, 0x73, 0x00, 0x00, 0x00, 0x00, 0xb0, 0xf6, 0xff, 0xff, 0x80, 0x00, 0x00, 0x00, 0xba, 0xd6, 0xd0, 0xbd, 0x00, 0x00, 0x00, 0x00, 0x00, 0x00, 0x00, 0x00, 0x02, 0xa2, 0x09, 0xbc, 0x04, 0x97, 0x59, 0xbd, 0xec, 0x91, 0x64, 0xbd, 0x4a, 0xc4, 0xac, 0x3c, 0x97, 0x1a, 0xe6, 0xbd, 0x0d, 0x5d, 0xcb, 0xbb, 0x28, 0x57, 0xa4, 0x3c, 0xf3, 0x01, 0x9a, 0xbd, 0x10, 0xaa, 0x83, 0xbd, 0x57, 0x32, 0xdd, 0xbd, 0xb1, 0x66, 0x04, 0x3c, 0xd7, 0x99, 0xb8, 0x3b, 0xfc, 0xac, 0x4f, 0xbd, 0x10, 0xc7, 0xf6, 0xbb, 0x00, 0x00, 0x00, 0x00, 0x15, 0x9b, 0x86, 0xbd, 0x00, 0x00, 0x00, 0x00, 0x54, 0x7b, 0xaf, 0xbd, 0xb3, 0x04, 0x68, 0xbd, 0x00, 0x00, 0x00, 0x00, 0xda, 0x99, 0x63, 0xbd, 0x78, 0x3c, 0x56, 0x3d, 0x00, 0x00, 0x00, 0x00, 0x7e, 0x9f, 0x37, 0xbd, 0xd6, 0xd8, 0xd2, 0x3b, 0x3a, 0x9b, 0x90, 0x3d, 0x00, 0x00, 0x00, 0x00, 0x3f, 0xeb, 0xa6, 0xbc, 0x02, 0x02, 0x4f, 0xbd, 0xd2, 0xf8, 0xff, 0xff, 0x10, 0x00, 0x00, 0x00, 0x04, 0x00, 0x00, 0x00, 0x14, 0x00, 0x00, 0x00, 0x48, 0x00, 0x00, 0x00, 0x02, 0x00, 0x00, 0x00, 0x0c, 0x00, 0x00, 0x00, 0x20, 0x00, 0x00, 0x00, 0x32, 0x00, 0x00, 0x00, 0x73, 0x65, 0x71, 0x75, 0x65, 0x6e, 0x74, 0x69, 0x61, 0x6c, 0x2f, 0x64, 0x65, 0x6e, 0x73, 0x65, 0x5f, 0x31, 0x2f, 0x4d, 0x61, 0x74, 0x4d, 0x75, 0x6c, 0x2f, 0x52, 0x65, 0x61, 0x64, 0x56, 0x61, 0x72, 0x69, 0x61, 0x62, 0x6c, 0x65, 0x4f, 0x70, 0x2f, 0x74, 0x72, 0x61, 0x6e, 0x73, 0x70, 0x6f, 0x73, 0x65, 0x00, 0x00, 0x90, 0xf7, 0xff, 0xff, 0x00, 0x06, 0x00, 0x00, 0x52, 0xb6, 0xf7, 0x3d, 0x65, 0xd5, 0x8f, 0xbe, 0x6f, 0x4f, 0x9e, 0x3e, 0x5e, 0x4a, 0x81, 0xbd, 0x7f, 0xdf, 0xec, 0xbd, 0xec, 0xec, 0x9a, 0xbe, 0xe7, 0xb2, 0xe4, 0x3c, 0x37, 0x9b, 0x82, 0x3e, 0x69, 0x87, 0x86, 0x3e, 0x10, 0x81, 0x16, 0x3e, 0x32, 0x4d, 0x45, 0xbe, 0xfd, 0x10, 0xdd, 0xbd, 0xd8, 0xaf, 0xc9, 0xbd, 0x21, 0xc1, 0x55, 0xbe, 0x51, 0x3d, 0x59, 0xbe, 0xac, 0x51, 0x2e, 0xbd, 0x9f, 0x3a, 0x1c, 0x3e, 0xeb, 0xdc, 0x44, 0xbe, 0xad, 0x7c, 0x0d, 0xbd, 0x54, 0x8a, 0xd2, 0x3d, 0xa3, 0xfb, 0xbb, 0xbe, 0xba, 0xf1, 0x17, 0xbc, 0xbc, 0xfd, 0x85, 0xbe, 0xc5, 0x85, 0x92, 0x3e, 0xd0, 0xcb, 0x86, 0xbe, 0x37, 0x25, 0x2b, 0xbe, 0x0d, 0x25, 0xce, 0x3d, 0x2a, 0xeb, 0xa5, 0xbe, 0xb4, 0x40, 0x57, 0x3e, 0xa7, 0x0c, 0x87, 0xbe, 0x3c, 0x48, 0x50, 0x3e, 0x4c, 0xa3, 0x18, 0x3e, 0x5b, 0xeb, 0x17, 0xbc, 0x40, 0xcf, 0xd2, 0x3c, 0x6c, 0xd8, 0x92, 0x3d, 0xe8, 0xcc, 0x96, 0x3e, 0xb4, 0x3e, 0x1c, 0xbe, 0xec, 0xea, 0xd2, 0x3e, 0x64, 0xc7, 0x32, 0xbd, 0x44, 0x6e, 0x4b, 0x3e, 0x37, 0xc4, 0x3b, 0x3e, 0xb8, 0x07, 0x05, 0x3e, 0xda, 0x03, 0x44, 0x3e, 0x8b, 0x4f, 0xb7, 0x3e, 0xd4, 0xd4, 0x9a, 0xbd, 0xc6, 0xaf, 0xa0, 0x3e, 0x8f, 0xc4, 0xb8, 0x3b, 0xb0, 0xc4, 0x7e, 0x3c, 0x34, 0x26, 0xa0, 0xbd, 0x10, 0xd1, 0x7c, 0x3d, 0xf7, 0x0d, 0xce, 0xbd, 0x20, 0xae, 0x69, 0x3c, 0x29, 0x6b, 0xac, 0xbd, 0xb3, 0xb2, 0x76, 0xbe, 0x00, 0xae, 0xda, 0x3a, 0x55, 0xc5, 0x2f, 0x3e, 0x3d, 0x6c, 0xec, 0x3d, 0x93, 0xdd, 0x94, 0xbe, 0x60, 0xf4, 0x49, 0xbe, 0xe4, 0x1b, 0x31, 0xbb, 0xaa, 0x73, 0xfa, 0x3c, 0xe9, 0x6e, 0x28, 0xbe, 0x88, 0xb5, 0xcb, 0x3e, 0xad, 0xa4, 0x2e, 0x3e, 0x23, 0xf5, 0x96, 0x3e, 0x5a, 0x85, 0x22, 0x3e, 0x84, 0xd0, 0xa7, 0x3d, 0x21, 0xf8, 0x8d, 0x3c, 0x8f, 0x37, 0x47, 0xbe, 0x1c, 0x48, 0x9a, 0x3d, 0x2b, 0x60, 0xbe, 0xba, 0x80, 0xfe, 0x56, 0xbc, 0xa5, 0x21, 0x9a, 0xbe, 0x32, 0x5e, 0xad, 0xbe, 0x9d, 0x3f, 0x93, 0xbd, 0x21, 0x53, 0x12, 0xbe, 0x01, 0x3d, 0x46, 0xbe, 0x49, 0x80, 0x78, 0x3d, 0x2e, 0xeb, 0x84, 0xbe, 0x66, 0x8a, 0x13, 0xbe, 0xa1, 0x78, 0xd4, 0xbd, 0xc2, 0x23, 0x58, 0x3e, 0x7d, 0x43, 0x17, 0x3e, 0x92, 0x53, 0x6b, 0x3e, 0xa3, 0x6c, 0x1b, 0xbd, 0x9b, 0x35, 0xbe, 0xbe, 0x00, 0x5a, 0x1b, 0x3a, 0x34, 0x25, 0xbc, 0xbd, 0x02, 0x61, 0x40, 0xbe, 0x5c, 0x52, 0xb8, 0x3d, 0x93, 0x12, 0x47, 0xbe, 0x1e, 0xd3, 0xb4, 0xbe, 0xd4, 0x90, 0x2e, 0xbe, 0x8d, 0x90, 0xba, 0xbe, 0x79, 0x17, 0xc8, 0x3c, 0x07, 0xaf, 0x6b, 0xbd, 0x08, 0xae, 0x4a, 0xbe, 0xe1, 0xce, 0x8d, 0x3e, 0xfe, 0xa8, 0x72, 0x3e, 0x95, 0x88, 0x42, 0xbd, 0xde, 0xcb, 0xab, 0xbe, 0x6c, 0x85, 0xa3, 0xbd, 0x19, 0xe7, 0x9f, 0xbd, 0xc3, 0x72, 0xbf, 0xbd, 0xd0, 0x04, 0xb3, 0x3e, 0x5c, 0x63, 0x91, 0x3e, 0x5c, 0x09, 0x1f, 0x3d, 0xcd, 0x88, 0xb8, 0x3d, 0x8f, 0x3e, 0x01, 0xbd, 0xec, 0x57, 0xcc, 0x3e, 0x7a, 0xef, 0x9e, 0xbc, 0x09, 0x71, 0x8e, 0xbe, 0xdb, 0x7b, 0x8d, 0x3d, 0xac, 0x3a, 0x3f, 0xbe, 0x9c, 0xec, 0x82, 0x3e, 0x20, 0xc5, 0x20, 0xbd, 0x69, 0xf6, 0xcd, 0xbd, 0xb7, 0xfd, 0x82, 0xbe, 0x50, 0xb4, 0xfc, 0x3d, 0xd2, 0x51, 0xcc, 0x3d, 0x82, 0x6e, 0x16, 0x3d, 0x70, 0x7a, 0xa1, 0x3d, 0x2a, 0x3a, 0x9d, 0x3d, 0xc4, 0x6c, 0x88, 0xbd, 0x2e, 0x11, 0xb7, 0x3d, 0x43, 0xe4, 0xbb, 0x3e, 0xc2, 0x9c, 0x28, 0x3c, 0x9e, 0xd6, 0x88, 0x3e, 0xf4, 0x7f, 0x05, 0x3e, 0xd8, 0x7f, 0xf2, 0xbd, 0x5e, 0x9c, 0x7b, 0x3e, 0x3c, 0xcd, 0xb9, 0xbd, 0x04, 0x6b, 0x3c, 0xbe, 0xfe, 0x72, 0x0c, 0x3d, 0xdd, 0x74, 0xc2, 0x3d, 0x08, 0xcd, 0x38, 0x3d, 0xb2, 0xb4, 0x5f, 0xbd, 0x26, 0xe4, 0xbe, 0xbe, 0xbe, 0xc1, 0x92, 0x3e, 0xe6, 0x19, 0x9c, 0x3e, 0xb5, 0x82, 0x3e, 0xbd, 0x50, 0xa1, 0x22, 0xbe, 0xb2, 0x8a, 0xc9, 0xbe, 0x91, 0x0a, 0xcc, 0xbe, 0x9a, 0x9e, 0xab, 0xbe, 0xa0, 0x69, 0xc5, 0xbc, 0x8b, 0x01, 0xd8, 0xbd, 0x06, 0x79, 0x1f, 0x3e, 0x9e, 0xb8, 0x9a, 0x3d, 0xaf, 0xa0, 0x23, 0xbe, 0x0e, 0x89, 0x5f, 0x3e, 0xfe, 0x75, 0x13, 0x3e, 0x37, 0x99, 0x3c, 0xbe, 0x54, 0x35, 0xaa, 0xbd, 0xd6, 0x5f, 0x29, 0xbd, 0x78, 0x18, 0xaa, 0xbe, 0x03, 0x3b, 0x04, 0xbe, 0x2c, 0x2f, 0x16, 0xbe, 0xe4, 0x76, 0xbd, 0x3d, 0x8b, 0x49, 0x05, 0x3d, 0x9b, 0x23, 0x79, 0x3e, 0xee, 0xb6, 0x76, 0xbe, 0x9f, 0x12, 0x94, 0x3e, 0xe6, 0xe0, 0xe0, 0x3d, 0xd5, 0xc0, 0x9d, 0x3e, 0x9c, 0x6e, 0xa6, 0x3e, 0x61, 0x56, 0x78, 0xbe, 0x32, 0x5c, 0x52, 0x3e, 0x38, 0xc6, 0xd9, 0xbd, 0x8a, 0xdf, 0x9e, 0x3d, 0x84, 0x70, 0xc0, 0xbc, 0x85, 0xdf, 0x9f, 0x3d, 0x1f, 0x78, 0xff, 0xbd, 0x47, 0xdd, 0x9d, 0xbd, 0xa1, 0x7f, 0xdb, 0x3e, 0xcb, 0x06, 0x37, 0xbd, 0xad, 0xcb, 0x87, 0xbe, 0xa7, 0x28, 0xb6, 0x3e, 0x06, 0x5a, 0x96, 0x3e, 0xac, 0x7d, 0x8a, 0xbe, 0xfe, 0x7d, 0x5f, 0x3e, 0xaa, 0xb0, 0x11, 0xbd, 0x93, 0x75, 0x64, 0xbe, 0x3b, 0x3b, 0x50, 0x3e, 0x10, 0xd9, 0xf9, 0xbc, 0x90, 0xc9, 0xde, 0xbd, 0x5e, 0x18, 0xdd, 0x3d, 0x63, 0x0a, 0x9f, 0xbe, 0x3b, 0x5f, 0xdd, 0xb9, 0x44, 0x8a, 0x7c, 0xbe, 0x59, 0xa7, 0x0b, 0x3e, 0x4e, 0xce, 0x0c, 0xbe, 0x01, 0xed, 0x93, 0x3e, 0x30, 0xe7, 0x2f, 0xbd, 0x59, 0xdc, 0xb7, 0xbe, 0x22, 0xd4, 0x6e, 0xbe, 0x7e, 0x65, 0x9e, 0xbe, 0xbf, 0x78, 0x87, 0x3e, 0x0c, 0x74, 0x76, 0xbe, 0x4b, 0xa1, 0x38, 0xbd, 0xf4, 0x4d, 0x0b, 0xbd, 0x35, 0x8e, 0x66, 0x3d, 0xbf, 0x2d, 0xa5, 0x3e, 0xaa, 0x7b, 0xa9, 0x3e, 0xfd, 0xdd, 0xba, 0xbd, 0x1c, 0x2a, 0xfc, 0x3e, 0x1c, 0x22, 0x1f, 0x3d, 0x17, 0x8d, 0xcc, 0x3b, 0x1a, 0xfe, 0x63, 0xbe, 0xbc, 0x72, 0x64, 0xbe, 0xce, 0xee, 0xa2, 0x3e, 0x86, 0xc3, 0x1e, 0xbe, 0xbb, 0x49, 0xb8, 0xbe, 0x9b, 0x37, 0x2e, 0xbe, 0xcd, 0xef, 0x07, 0xbe, 0x7c, 0xd0, 0x95, 0xbe, 0x77, 0x93, 0xfa, 0x3d, 0xd4, 0x51, 0xe1, 0xbd, 0xbc, 0x27, 0x86, 0x3c, 0x66, 0x22, 0xb8, 0xbc, 0xe0, 0x1c, 0xa2, 0x3c, 0x08, 0xca, 0x81, 0xbd, 0xd8, 0xe3, 0x76, 0xbe, 0xf3, 0xdf, 0x58, 0x3e, 0xda, 0x29, 0x3c, 0x3e, 0x33, 0x91, 0x97, 0x3e, 0x00, 0x61, 0xba, 0xba, 0xdf, 0xc7, 0x6c, 0xbe, 0xf6, 0x0c, 0x08, 0xbd, 0xed, 0xa9, 0x07, 0x3e, 0x88, 0x02, 0x86, 0xbe, 0xdb, 0x33, 0x13, 0xbe, 0x7e, 0x29, 0x5b, 0x3e, 0x4b, 0x52, 0x19, 0x3d, 0x2a, 0x94, 0x8c, 0xbe, 0x35, 0xa9, 0x19, 0x3e, 0x62, 0x0c, 0x15, 0xbe, 0x2e, 0x0e, 0x80, 0x3e, 0x5f, 0xa8, 0x2d, 0xbe, 0x69, 0x79, 0xb0, 0xbe, 0xd3, 0x02, 0xb3, 0xbe, 0x4e, 0x46, 0x3a, 0x3e, 0x6a, 0xa2, 0x14, 0x3e, 0x0e, 0x01, 0x15, 0x3e, 0x44, 0x2c, 0x1c, 0x3b, 0x3f, 0x1f, 0xf1, 0xbd, 0x1f, 0xc5, 0x16, 0xbe, 0xa4, 0xdf, 0x75, 0xbe, 0x58, 0x0f, 0x6c, 0xbe, 0x0e, 0xf1, 0x7f, 0x3e, 0xe9, 0x8e, 0xa8, 0x3d, 0xe9, 0x1f, 0xb7, 0xbe, 0x57, 0x5f, 0x56, 0xbe, 0x85, 0xdb, 0x00, 0xbe, 0x2c, 0xf5, 0x7e, 0x3d, 0xa0, 0x49, 0xb5, 0x3e, 0x9b, 0xec, 0x03, 0xbe, 0xfa, 0xde, 0x88, 0xbe, 0x38, 0xfe, 0x62, 0x3d, 0x47, 0x8c, 0xb8, 0x3e, 0x2a, 0xe5, 0x8f, 0x3e, 0xcc, 0x2f, 0x49, 0xbc, 0xb8, 0xa5, 0xa4, 0xbe, 0xd4, 0xf0, 0x6b, 0x3e, 0xe9, 0x02, 0xc4, 0x3d, 0x56, 0xb1, 0xc1, 0xbe, 0xfb, 0x26, 0x45, 0x3e, 0xe1, 0xf7, 0x01, 0xbe, 0xe8, 0xc7, 0x0f, 0x3e, 0x3f, 0xd8, 0x89, 0xbe, 0xed, 0x60, 0x56, 0xbd, 0xf6, 0xc0, 0x51, 0xbe, 0xce, 0x91, 0xec, 0x3d, 0xf8, 0x2d, 0xdc, 0xbd, 0xc6, 0x8e, 0x9c, 0x3e, 0x6e, 0xad, 0x5f, 0xbe, 0x1b, 0x4b, 0x95, 0x3e, 0x0c, 0x6a, 0x94, 0xbe, 0x19, 0x75, 0xa8, 0x3e, 0x28, 0x9e, 0xbd, 0xbe, 0x82, 0x6d, 0x09, 0xbe, 0x36, 0x78, 0x26, 0xbe, 0xe1, 0xd8, 0xa2, 0x3e, 0xd8, 0xa5, 0xce, 0x3c, 0x92, 0xd1, 0x51, 0xbe, 0x58, 0xa9, 0x1d, 0x3d, 0x02, 0xde, 0xfb, 0xbd, 0x61, 0x81, 0xb0, 0x3d, 0xd5, 0x23, 0x44, 0x3b, 0x2a, 0xde, 0x8e, 0xbe, 0x12, 0x61, 0x0c, 0x3e, 0xb4, 0xfe, 0xac, 0xbe, 0x9d, 0xa9, 0xe1, 0x3e, 0x1d, 0x79, 0xa0, 0x3d, 0x90, 0x66, 0x72, 0xbb, 0x4e, 0xff, 0x81, 0xbe, 0x6c, 0x3d, 0x37, 0x3d, 0xde, 0xb1, 0x4a, 0xbe, 0x2a, 0x21, 0x93, 0x3e, 0x20, 0xda, 0xef, 0xbd, 0x27, 0xed, 0xbb, 0x3e, 0x69, 0x0c, 0x98, 0xbe, 0x90, 0xd0, 0x46, 0x3e, 0x60, 0x53, 0x28, 0xbc, 0x8b, 0x62, 0xf5, 0x3d, 0xea, 0x3f, 0x82, 0xbe, 0x62, 0x60, 0x83, 0x3e, 0x54, 0x58, 0x8c, 0xbe, 0x9b, 0x98, 0x8a, 0x3e, 0xb8, 0x71, 0x55, 0xbc, 0xab, 0x78, 0x83, 0x3e, 0x65, 0x50, 0xe7, 0xbd, 0x44, 0x2b, 0x3b, 0xbd, 0x02, 0x8e, 0x3e, 0x3e, 0x03, 0x91, 0xc5, 0xbc, 0xb6, 0x17, 0xa2, 0x3d, 0xd0, 0x4a, 0xbc, 0xbe, 0x5e, 0x08, 0x90, 0xbe, 0x34, 0x56, 0xa6, 0xbe, 0xaf, 0x6b, 0x79, 0x3e, 0x4d, 0x50, 0x47, 0xbe, 0xa8, 0x3d, 0x64, 0x3d, 0xea, 0x6c, 0x44, 0x3e, 0x34, 0x76, 0x68, 0x3c, 0xcd, 0x3d, 0x77, 0x3c, 0x47, 0xd4, 0x9d, 0xbe, 0x5a, 0xc2, 0x8e, 0x3d, 0x5c, 0x4c, 0xd6, 0xbd, 0xf6, 0x0d, 0x99, 0x3e, 0xf7, 0x5f, 0x63, 0xbe, 0xc8, 0x8a, 0x91, 0x3e, 0xcf, 0xae, 0xd5, 0xbd, 0xb7, 0xad, 0xda, 0x3e, 0xb1, 0xe2, 0x7c, 0xbe, 0x2c, 0x71, 0x1e, 0xbd, 0xf3, 0xee, 0x7e, 0xbe, 0xc6, 0xe7, 0x06, 0x3e, 0x00, 0x93, 0x05, 0x3d, 0x8a, 0xb3, 0x26, 0xbe, 0x24, 0x9d, 0x96, 0x3d, 0xb3, 0x44, 0x17, 0x3d, 0x34, 0xdd, 0x80, 0x3e, 0xca, 0x5d, 0x55, 0x3e, 0x27, 0x28, 0xf8, 0xbc, 0x9d, 0x81, 0x1d, 0xbe, 0x5c, 0x3f, 0x8e, 0xbd, 0x75, 0x33, 0x1e, 0xbe, 0xdb, 0x74, 0x9f, 0xbd, 0x1a, 0xdd, 0xd6, 0x3a, 0x91, 0xf1, 0xa0, 0xbe, 0x5c, 0x63, 0x1f, 0x3e, 0xb8, 0x45, 0x19, 0xbe, 0x22, 0x0e, 0x04, 0x3e, 0xad, 0x07, 0xa7, 0x3e, 0x0b, 0xa3, 0x9a, 0x3e, 0x90, 0xfa, 0xaf, 0x3e, 0x98, 0x08, 0xdc, 0x3e, 0xc8, 0xf8, 0xc2, 0xbe, 0x93, 0x4b, 0x4c, 0xbc, 0x60, 0x75, 0xe3, 0x3c, 0xf7, 0xaf, 0x63, 0xbe, 0x00, 0x17, 0x57, 0xbe, 0x1f, 0x64, 0x19, 0x3e, 0x3c, 0x8a, 0x96, 0x3e, 0x1b, 0xc9, 0x6c, 0x3e, 0xa0, 0xf2, 0x13, 0xbe, 0xe6, 0xde, 0xe9, 0x3d, 0x82, 0x87, 0x32, 0xbd, 0x04, 0xe6, 0xf6, 0xbc, 0x80, 0x91, 0x18, 0xbb, 0xbe, 0x3f, 0x73, 0x3d, 0x9e, 0xf6, 0x5c, 0xbe, 0x03, 0x4f, 0x6a, 0x3e, 0xa7, 0x8e, 0x4f, 0x3a, 0xf4, 0xbc, 0x90, 0xbd, 0x79, 0x3f, 0xaa, 0xbe, 0x54, 0x84, 0x8b, 0x3d, 0xda, 0xb8, 0x5e, 0x3e, 0x6b, 0x91, 0x68, 0xbe, 0x14, 0x52, 0xb2, 0x3d, 0x6d, 0x12, 0xc3, 0xbe, 0xf4, 0x8d, 0xbc, 0xbe, 0x96, 0xdc, 0xdb, 0x3c, 0x0d, 0x17, 0x8d, 0x3e, 0x32, 0xff, 0xff, 0xff, 0x10, 0x00, 0x00, 0x00, 0x03, 0x00, 0x00, 0x00, 0x10, 0x00, 0x00, 0x00, 0x30, 0x00, 0x00, 0x00, 0x01, 0x00, 0x00, 0x00, 0x0c, 0x00, 0x00, 0x00, 0x1e, 0x00, 0x00, 0x00, 0x73, 0x65, 0x71, 0x75, 0x65, 0x6e, 0x74, 0x69, 0x61, 0x6c, 0x2f, 0x64, 0x65, 0x6e, 0x73, 0x65, 0x5f, 0x31, 0x2f, 0x4d, 0x61, 0x74, 0x4d, 0x75, 0x6c, 0x5f, 0x62, 0x69, 0x61, 0x73, 0x00, 0x00, 0xd8, 0xfd, 0xff, 0xff, 0x30, 0x00, 0x00, 0x00, 0xc3, 0xae, 0x14, 0xbe, 0x0c, 0x98, 0x16, 0xbf, 0xd0, 0x84, 0xb0, 0xbe, 0xfc, 0xcb, 0xc0, 0xbe, 0x97, 0xc8, 0x0d, 0xbf, 0x38, 0x5c, 0xf9, 0xbe, 0x85, 0x52, 0xfc, 0xbe, 0x38, 0x0c, 0xf1, 0xbe, 0xb9, 0x65, 0x59, 0xbe, 0x77, 0x73, 0x5d, 0xbe, 0x12, 0xaf, 0x02, 0x3f, 0x37, 0x79, 0x9a, 0xbe, 0xaa, 0xff, 0xff, 0xff, 0x10, 0x00, 0x00, 0x00, 0x02, 0x00, 0x00, 0x00, 0x10, 0x00, 0x00, 0x00, 0x30, 0x00, 0x00, 0x00, 0x01, 0x00, 0x00, 0x00, 0x03, 0x00, 0x00, 0x00, 0x1e, 0x00, 0x00, 0x00, 0x73, 0x65, 0x71, 0x75, 0x65, 0x6e, 0x74, 0x69, 0x61, 0x6c, 0x2f, 0x64, 0x65, 0x6e, 0x73, 0x65, 0x5f, 0x32, 0x2f, 0x4d, 0x61, 0x74, 0x4d, 0x75, 0x6c, 0x5f, 0x62, 0x69, 0x61, 0x73, 0x00, 0x00, 0x50, 0xfe, 0xff, 0xff, 0x0c, 0x00, 0x00, 0x00, 0x58, 0xca, 0xe6, 0x3f, 0x9a, 0xa6, 0x7a, 0xbf, 0x60, 0xd6, 0x8b, 0xbf, 0x00, 0x00, 0x0e, 0x00, 0x14, 0x00, 0x04, 0x00, 0x00, 0x00, 0x08, 0x00, 0x0c, 0x00, 0x10, 0x00, 0x0e, 0x00, 0x00, 0x00, 0x10, 0x00, 0x00, 0x00, 0x01, 0x00, 0x00, 0x00, 0x14, 0x00, 0x00, 0x00, 0x48, 0x00, 0x00, 0x00, 0x02, 0x00, 0x00, 0x00, 0x03, 0x00, 0x00, 0x00, 0x0c, 0x00, 0x00, 0x00, 0x32, 0x00, 0x00, 0x00, 0x73, 0x65, 0x71, 0x75, 0x65, 0x6e, 0x74, 0x69, 0x61, 0x6c, 0x2f, 0x64, 0x65, 0x6e, 0x73, 0x65, 0x5f, 0x32, 0x2f, 0x4d, 0x61, 0x74, 0x4d, 0x75, 0x6c, 0x2f, 0x52, 0x65, 0x61, 0x64, 0x56, 0x61, 0x72, 0x69, 0x61, 0x62, 0x6c, 0x65, 0x4f, 0x70, 0x2f, 0x74, 0x72, 0x61, 0x6e, 0x73, 0x70, 0x6f, 0x73, 0x65, 0x00, 0x00, 0xcc, 0xfe, 0xff, 0xff, 0x90, 0x00, 0x00, 0x00, 0x7d, 0x36, 0x54, 0x3e, 0xec, 0x1d, 0x62, 0xbe, 0xfb, 0x38, 0x14, 0xbf, 0x4a, 0x0f, 0xe2, 0x3c, 0xaa, 0x32, 0xc1, 0x3e, 0xcc, 0x15, 0xf5, 0x3c, 0xed, 0x07, 0x82, 0xbe, 0x5a, 0xe2, 0x75, 0xbe, 0xc9, 0x62, 0x8a, 0xbc, 0x9e, 0x96, 0xf6, 0xbe, 0x24, 0x22, 0x5a, 0xbe, 0x61, 0xaf, 0xb2, 0x3e, 0x0c, 0x88, 0x64, 0x3e, 0xb6, 0xae, 0x0b, 0x3d, 0xeb, 0x01, 0xfa, 0xbe, 0xe2, 0xd4, 0xfa, 0x3d, 0x1c, 0xa8, 0x8c, 0xbe, 0x94, 0x74, 0xf0, 0x3e, 0xf2, 0x99, 0x77, 0x3e, 0xf2, 0xb3, 0xb4, 0x3e, 0xf9, 0x32, 0x9c, 0x3e, 0x16, 0xa5, 0xb8, 0xbe, 0x92, 0x61, 0xbc, 0xbe, 0x20, 0x10, 0x04, 0x3f, 0x59, 0x76, 0xf6, 0xbe, 0x13, 0xe5, 0x14, 0xbe, 0x02, 0x10, 0xba, 0xbe, 0xcc, 0xcb, 0xcb, 0xbe, 0xcc, 0x63, 0x8b, 0x3e, 0xce, 0x9e, 0xff, 0x3e, 0x49, 0x6f, 0x2b, 0x3e, 0xcc, 0xeb, 0xe7, 0xbe, 0xbb, 0xa5, 0xf3, 0x3e, 0x48, 0x6d, 0xa1, 0xbe, 0xbe, 0x15, 0x37, 0xbe, 0xa4, 0x3c, 0x10, 0x3f, 0x04, 0x00, 0x00, 0x00, 0xf0, 0x00, 0x00, 0x00, 0x9c, 0x00, 0x00, 0x00, 0x5c, 0x00, 0x00, 0x00, 0x18, 0x00, 0x00, 0x00, 0x14, 0x00, 0x1c, 0x00, 0x08, 0x00, 0x0c, 0x00, 0x10, 0x00, 0x07, 0x00, 0x14, 0x00, 0x00, 0x00, 0x00, 0x00, 0x18, 0x00, 0x14, 0x00, 0x00, 0x00, 0x00, 0x00, 0x00, 0x09, 0x01, 0x00, 0x00, 0x00, 0x10, 0x00, 0x00, 0x00, 0x14, 0x00, 0x00, 0x00, 0x24, 0x00, 0x00, 0x00, 0x14, 0x00, 0x00, 0x00, 0x01, 0x00, 0x00, 0x00, 0x08, 0x00, 0x00, 0x00, 0x01, 0x00, 0x00, 0x00, 0x00, 0x00, 0x00, 0x00, 0x00, 0x00, 0x00, 0x00, 0x00, 0x00, 0x06, 0x00, 0x08, 0x00, 0x04, 0x00, 0x06, 0x00, 0x00, 0x00, 0x00, 0x00, 0x80, 0x3f, 0x88, 0xff, 0xff, 0xff, 0x00, 0x00, 0x00, 0x08, 0x10, 0x00, 0x00, 0x00, 0x1c, 0x00, 0x00, 0x00, 0x28, 0x00, 0x00, 0x00, 0x1c, 0x00, 0x00, 0x00, 0x03, 0x00, 0x00, 0x00, 0x07, 0x00, 0x00, 0x00, 0x09, 0x00, 0x00, 0x00, 0x0a, 0x00, 0x00, 0x00, 0x01, 0x00, 0x00, 0x00, 0x08, 0x00, 0x00, 0x00, 0x00, 0x00, 0x00, 0x00, 0x04, 0x00, 0x04, 0x00, 0x04, 0x00, 0x00, 0x00, 0xc4, 0xff, 0xff, 0xff, 0x00, 0x00, 0x00, 0x08, 0x10, 0x00, 0x00, 0x00, 0x1c, 0x00, 0x00, 0x00, 0x24, 0x00, 0x00, 0x00, 0x1c, 0x00, 0x00, 0x00, 0x03, 0x00, 0x00, 0x00, 0x04, 0x00, 0x00, 0x00, 0x05, 0x00, 0x00, 0x00, 0x06, 0x00, 0x00, 0x00, 0x01, 0x00, 0x00, 0x00, 0x07, 0x00, 0x00, 0x00, 0x00, 0x00, 0x00, 0x00, 0x82, 0xff, 0xff, 0xff, 0x00, 0x00, 0x00, 0x01, 0x14, 0x00, 0x18, 0x00, 0x00, 0x00, 0x08, 0x00, 0x0c, 0x00, 0x07, 0x00, 0x10, 0x00, 0x00, 0x00, 0x00, 0x00, 0x14, 0x00, 0x14, 0x00, 0x00, 0x00, 0x00, 0x00, 0x00, 0x08, 0x10, 0x00, 0x00, 0x00, 0x1c, 0x00, 0x00, 0x00, 0x24, 0x00, 0x00, 0x00, 0x1c, 0x00, 0x00, 0x00, 0x03, 0x00, 0x00, 0x00, 0x01, 0x00, 0x00, 0x00, 0x02, 0x00, 0x00, 0x00, 0x03, 0x00, 0x00, 0x00, 0x01, 0x00, 0x00, 0x00, 0x04, 0x00, 0x00, 0x00, 0x00, 0x00, 0x00, 0x00, 0xd2, 0xff, 0xff, 0xff, 0x00, 0x00, 0x00, 0x01, 0x02, 0x00, 0x00, 0x00, 0x10, 0x00, 0x00, 0x00, 0x04, 0x00, 0x00, 0x00, 0xe6, 0xff, 0xff, 0xff, 0x00, 0x00, 0x00, 0x19, 0xfa, 0xff, 0xff, 0xff, 0x00, 0x09, 0x06, 0x00, 0x06, 0x00, 0x05, 0x00, 0x06, 0x00, 0x00, 0x00, 0x00, 0x09, 0x06, 0x00, 0x08, 0x00, 0x07, 0x00, 0x06, 0x00, 0x00, 0x00, 0x00, 0x00, 0x00, 0x09};
const int model_data_len = 7544;
